10001001001001000110111001110100101110010011010011000101010111110101110110000001100011001010001101000110111111010001100110100000
11011111100000010100100101011100010000001001010100000010000011001110011100010111101010010111001011000010111010001111010101010000
01010001110110010001001001010110100000101011011111011000000000010111101111110001101000101010100011110000101001101000100001010110
11110001111000101100011110011000011000111110010011011100001111011011011001110010000010111100000011001010011111101011100111111111
00110110110011110100111110000010101111110001010010111010011110011101101001000001000010101111011101000111010000111000001100010010
00111110011010100010010111010101100001101010001010101011000100001011011000001100111001101010001010110000011011000111000111101110
10001101001000000101100010001000111111100101111100111010010011110000101111010000000111011000111111100000010011111110000110101010
00000011011111101111100100000111010111010000011000101001000111000101110111011101110000000010101010001011011011001111111100110011
10110110011110101101111100110100101110100100001001101001001000010011010010101110100100001001111100111101100001101011001101000010
10100010111101011111001110011001100111111111101100011001100111000101001001110000111110110000110000011101011001010000100100000011
00000011101100010110111111110000010001111001100010001101010101010111011100101001100110000101010110001111110011000011111010101111
00111001001001001110011000101100010111101001011000101100110100100001010011000101101111110010000000111110011110100111111100011100
11101000011111100100110001011101000111100100010001001111110000000001100010010110010000011000001011101011011101110101010010111010
11101111011110111010011100111101101100111011011011100101001110011101011101011001011100001011100110111001101001001110111010110010
00110100001001110111101010010100111011110101100001000110111000100001010111100101001001101111100010011000011011100010110110101101
00110001111011011011011100111011001000000111110110001001100110000110100000100100000111011101011010010100100001000000110011000101
11000011111100111111000100000010000000001111000100111110011000101001111000111111001011000111110101010001110110001011100101111110
10011011101111000111101001111011110010101111100011001000001000011011100011010010101110110111010010001101001111001100011011011111
00101110011101101011110011100110110001111111110100011000001100111100001110000111000001001001000000010001010110111101001010111111
11101111011111000111000011010101101001011110010010000101010010100100111110000000110110100001100000010100001010001111000110101011
10100010001010111000001101100110101011111010101111110000110111101001111011011111110110000110101101010000000111110000101110010110
00010000100100110010011010001011110101111011110101011100010100001101001111011011100110111000111000010000011010101101111011001111
00110111110011101101111110000001011011011011100101100000011000110111111111001101101111100010000111011110111001000001110011101111
01101111001001000000010010111000001101010001001001010001100110100011110110010011001001101101011010110110010000001111010001010111
11110001111110011010100111010100011001000110111011110001011011101100011101100011100100011101100100001000001100010101100000111010
11111010101100110010000010110100110100110101000111101010000001001110101000111010101001110111000100101011100111000110000111100101
10001000000000010011101100001110000001001110100001100010100010110110011111110110001100001101101111011110001101100100010011111010
01000010010101010011010101011101110001100010000101100100110101110111100001000011010101000110001101011100110110111010101110001101
00011100001111001010010100001111100000101010010001010001111010110110010001011100010101100011111001010001010010010110100010110110
00001000000010010100000010100100000100110011010100010010000110010101000111111001000011110101000001110001111011110011011010000100
10101100000100100001000111110011100001110000001111001010001110011010110010110000001111000000001101101001011000100101000100110111
01111100101010111010100000001111110100001111100010100011000011101100000110100101001011101101100011111110000111001101111010000101
00011010101100110000010010010100111000111010111111100010001010010101111000101101100110101000000111101010101011001010100011010110
11100100011101010101100010100100110000100010100000110010101110001110111101011110011100000100000011101011111001110011011100101100
01111011110101010011000101100000110001100101010001111010001110100001101011101100110100111111001110101001111110101101111100101100
00011101100010110000011010101011001011111010000100100010010010011001101100100001011111100111011011000000010010101001010011011100
11011100100011101110100100011011101101000110100001111001101110011101100101111011101010010111100111111111000110000110000000011001
01100111111000010000000111110110000001011111101000011010010111100001111011000101001100111111001101110101100111011110101101011011
01010010111110011101010001110100000110011011110000110011101111111110101111001110101111000001110010100001110101101000011001010100
01000010100100100100100111101110111111011010010111001000100110101111010010011010001010001010110000011110100001010011111101111000
11101101100110010100011111001000110000000110001111010111000010101101010111001111011000011100010011010100101000110110010000111011
11111011000100001010010110100100001000010011101100110100001111000111011001101110101000011110000001101100000001101111101010011010
10011011101000001110101101100010001100101010000110000010101101010000001000101010100100100000111000000100011011000001100100111101
